
// This is a TensorFlow Lite model file that has been converted into a C data
// array using the tensorflow.lite.util.convert_bytes_to_c_source() function.
// This form is useful for compiling into a binary for devices that don't have a
// file system.


// We need to keep the data array aligned on some architectures.
#ifdef __has_attribute
#define HAVE_ATTRIBUTE(x) __has_attribute(x)
#else
#define HAVE_ATTRIBUTE(x) 0
#endif
#if HAVE_ATTRIBUTE(aligned) || (defined(__GNUC__) && !defined(__clang__))
#define DATA_ALIGN_ATTRIBUTE __attribute__((aligned(4)))
#else
#define DATA_ALIGN_ATTRIBUTE
#endif

const unsigned char sine_model[] DATA_ALIGN_ATTRIBUTE = {
    0x1c, 0x00, 0x00, 0x00, 0x54, 0x46, 0x4c, 0x33, 0x14, 0x00, 0x20, 0x00, 0x1c,
    0x00, 0x18, 0x00, 0x14, 0x00, 0x10, 0x00, 0x0c, 0x00, 0x00, 0x00, 0x08, 0x00,
    0x04, 0x00, 0x14, 0x00, 0x00, 0x00, 0x1c, 0x00, 0x00, 0x00, 0x94, 0x00, 0x00,
    0x00, 0xec, 0x00, 0x00, 0x00, 0x08, 0x07, 0x00, 0x00, 0x18, 0x07, 0x00, 0x00,
    0x28, 0x0c, 0x00, 0x00, 0x03, 0x00, 0x00, 0x00, 0x01, 0x00, 0x00, 0x00, 0x10,
    0x00, 0x00, 0x00, 0x00, 0x00, 0x0a, 0x00, 0x10, 0x00, 0x0c, 0x00, 0x08, 0x00,
    0x04, 0x00, 0x0a, 0x00, 0x00, 0x00, 0x0c, 0x00, 0x00, 0x00, 0x1c, 0x00, 0x00,
    0x00, 0x38, 0x00, 0x00, 0x00, 0x0f, 0x00, 0x00, 0x00, 0x73, 0x65, 0x72, 0x76,
    0x69, 0x6e, 0x67, 0x5f, 0x64, 0x65, 0x66, 0x61, 0x75, 0x6c, 0x74, 0x00, 0x01,
    0x00, 0x00, 0x00, 0x04, 0x00, 0x00, 0x00, 0x94, 0xff, 0xff, 0xff, 0x09, 0x00,
    0x00, 0x00, 0x04, 0x00, 0x00, 0x00, 0x07, 0x00, 0x00, 0x00, 0x64, 0x65, 0x6e,
    0x73, 0x65, 0x5f, 0x34, 0x00, 0x01, 0x00, 0x00, 0x00, 0x04, 0x00, 0x00, 0x00,
    0x86, 0xf9, 0xff, 0xff, 0x04, 0x00, 0x00, 0x00, 0x0d, 0x00, 0x00, 0x00, 0x64,
    0x65, 0x6e, 0x73, 0x65, 0x5f, 0x32, 0x5f, 0x69, 0x6e, 0x70, 0x75, 0x74, 0x00,
    0x00, 0x00, 0x02, 0x00, 0x00, 0x00, 0x34, 0x00, 0x00, 0x00, 0x04, 0x00, 0x00,
    0x00, 0xdc, 0xff, 0xff, 0xff, 0x0c, 0x00, 0x00, 0x00, 0x04, 0x00, 0x00, 0x00,
    0x13, 0x00, 0x00, 0x00, 0x43, 0x4f, 0x4e, 0x56, 0x45, 0x52, 0x53, 0x49, 0x4f,
    0x4e, 0x5f, 0x4d, 0x45, 0x54, 0x41, 0x44, 0x41, 0x54, 0x41, 0x00, 0x08, 0x00,
    0x0c, 0x00, 0x08, 0x00, 0x04, 0x00, 0x08, 0x00, 0x00, 0x00, 0x0b, 0x00, 0x00,
    0x00, 0x04, 0x00, 0x00, 0x00, 0x13, 0x00, 0x00, 0x00, 0x6d, 0x69, 0x6e, 0x5f,
    0x72, 0x75, 0x6e, 0x74, 0x69, 0x6d, 0x65, 0x5f, 0x76, 0x65, 0x72, 0x73, 0x69,
    0x6f, 0x6e, 0x00, 0x0d, 0x00, 0x00, 0x00, 0x18, 0x06, 0x00, 0x00, 0x10, 0x06,
    0x00, 0x00, 0xfc, 0x05, 0x00, 0x00, 0xa4, 0x05, 0x00, 0x00, 0x54, 0x05, 0x00,
    0x00, 0x04, 0x05, 0x00, 0x00, 0xf4, 0x00, 0x00, 0x00, 0xa4, 0x00, 0x00, 0x00,
    0x9c, 0x00, 0x00, 0x00, 0x94, 0x00, 0x00, 0x00, 0x8c, 0x00, 0x00, 0x00, 0x6c,
    0x00, 0x00, 0x00, 0x04, 0x00, 0x00, 0x00, 0x36, 0xfa, 0xff, 0xff, 0x04, 0x00,
    0x00, 0x00, 0x58, 0x00, 0x00, 0x00, 0x0c, 0x00, 0x00, 0x00, 0x08, 0x00, 0x0e,
    0x00, 0x08, 0x00, 0x04, 0x00, 0x08, 0x00, 0x00, 0x00, 0x10, 0x00, 0x00, 0x00,
    0x28, 0x00, 0x00, 0x00, 0x00, 0x00, 0x06, 0x00, 0x08, 0x00, 0x04, 0x00, 0x06,
    0x00, 0x00, 0x00, 0x04, 0x00, 0x00, 0x00, 0x01, 0x00, 0x00, 0x00, 0xea, 0x03,
    0x00, 0x00, 0x00, 0x00, 0x0a, 0x00, 0x10, 0x00, 0x0c, 0x00, 0x08, 0x00, 0x04,
    0x00, 0x0a, 0x00, 0x00, 0x00, 0x02, 0x00, 0x00, 0x00, 0x02, 0x00, 0x00, 0x00,
    0x04, 0x00, 0x00, 0x00, 0x06, 0x00, 0x00, 0x00, 0x32, 0x2e, 0x31, 0x35, 0x2e,
    0x30, 0x00, 0x00, 0x9a, 0xfa, 0xff, 0xff, 0x04, 0x00, 0x00, 0x00, 0x10, 0x00,
    0x00, 0x00, 0x31, 0x2e, 0x35, 0x2e, 0x30, 0x00, 0x00, 0x00, 0x00, 0x00, 0x00,
    0x00, 0x00, 0x00, 0x00, 0x00, 0xa8, 0xf5, 0xff, 0xff, 0xac, 0xf5, 0xff, 0xff,
    0xb0, 0xf5, 0xff, 0xff, 0xc2, 0xfa, 0xff, 0xff, 0x04, 0x00, 0x00, 0x00, 0x40,
    0x00, 0x00, 0x00, 0x2a, 0x7e, 0x8b, 0xbf, 0xfd, 0xaa, 0xe2, 0xbe, 0x08, 0xc4,
    0xb7, 0x3e, 0xe3, 0x0d, 0x7c, 0xbe, 0xb9, 0x28, 0xad, 0x3e, 0xb5, 0x1e, 0x0d,
    0x3e, 0x7a, 0xbe, 0xb7, 0xbe, 0xaf, 0xb7, 0x9f, 0x3f, 0xce, 0xb0, 0x22, 0x3f,
    0x65, 0xdd, 0x9f, 0xbe, 0x15, 0x61, 0xf0, 0xbd, 0x70, 0xa0, 0x4b, 0x3f, 0x5d,
    0x3a, 0xac, 0x3f, 0xc4, 0x0c, 0x71, 0xbf, 0x00, 0x67, 0x73, 0xbd, 0xbd, 0xab,
    0x94, 0x3f, 0x0e, 0xfb, 0xff, 0xff, 0x04, 0x00, 0x00, 0x00, 0x00, 0x04, 0x00,
    0x00, 0x70, 0xba, 0x0a, 0xbf, 0xdf, 0x6d, 0x70, 0xbf, 0xfe, 0x65, 0x54, 0x3f,
    0xd9, 0xa3, 0x9a, 0xbe, 0xa6, 0x9f, 0x46, 0x3e, 0xb7, 0x07, 0x89, 0x3e, 0xc7,
    0x2a, 0xd8, 0xbe, 0x90, 0xed, 0xa1, 0xbe, 0x22, 0xa5, 0xd7, 0xbe, 0x8f, 0xc3,
    0x9e, 0x3e, 0xdb, 0xd4, 0xa9, 0xbe, 0xe9, 0xa9, 0x9c, 0x3e, 0x1c, 0x4b, 0x3e,
    0xbf, 0x00, 0x9f, 0x26, 0x3d, 0x84, 0x05, 0xa0, 0xbe, 0xa8, 0x17, 0x31, 0x3d,
    0x8b, 0x7a, 0x4c, 0x3e, 0xb1, 0x65, 0x26, 0x3e, 0x49, 0x3c, 0xc6, 0x3e, 0x3e,
    0x9c, 0x46, 0x3e, 0xd4, 0x55, 0xd2, 0x3d, 0x39, 0xc1, 0x6e, 0x3e, 0x66, 0x9c,
    0xfd, 0x3d, 0x53, 0xf6, 0xdb, 0x3e, 0x32, 0x22, 0x7c, 0xbe, 0xed, 0xb3, 0xa5,
    0x3e, 0x1c, 0x47, 0x8c, 0xbe, 0x2e, 0x9e, 0x44, 0xbe, 0x22, 0x18, 0x8d, 0x3e,
    0x44, 0x7e, 0xd5, 0xbd, 0xfe, 0x0c, 0x99, 0xbe, 0xb6, 0x3a, 0x59, 0xbe, 0x2e,
    0xa0, 0x2a, 0xbe, 0x71, 0x95, 0x9b, 0xbe, 0x19, 0x6c, 0x52, 0x3c, 0x40, 0xf5,
    0xfa, 0xbc, 0x70, 0x4c, 0x61, 0x3d, 0xc8, 0x94, 0x35, 0xbd, 0xff, 0x72, 0xbe,
    0x3e, 0x6f, 0x32, 0xc5, 0x3e, 0x82, 0xa4, 0x34, 0xbe, 0x50, 0x79, 0x2e, 0xbe,
    0xfa, 0x0c, 0x42, 0xbe, 0xf5, 0xdb, 0xb0, 0xbe, 0xe4, 0x35, 0xa7, 0x3d, 0xb6,
    0x8b, 0x70, 0xbe, 0x3a, 0x3f, 0x97, 0xbe, 0xda, 0xa7, 0x59, 0x3e, 0x0f, 0x19,
    0x90, 0x3e, 0x4e, 0xa1, 0x76, 0xbe, 0xc7, 0xe6, 0xef, 0xbd, 0x0c, 0x1c, 0x9b,
    0xbe, 0x05, 0xa5, 0x48, 0xbe, 0x42, 0xb3, 0x4b, 0xbe, 0x6c, 0x04, 0xc7, 0xbe,
    0x80, 0x4c, 0xd7, 0xbb, 0x23, 0x09, 0x6f, 0xbe, 0xcc, 0x3c, 0x01, 0xbe, 0x13,
    0x82, 0xd8, 0x3e, 0xb4, 0x31, 0xbc, 0xbd, 0x75, 0x70, 0x9a, 0x3e, 0x31, 0xd8,
    0xdc, 0x3e, 0x15, 0x35, 0x5c, 0xbe, 0xc0, 0xcd, 0xef, 0x3c, 0xc6, 0xc9, 0xc0,
    0x3e, 0x79, 0x30, 0x9e, 0x3d, 0x4d, 0x21, 0x1f, 0xbe, 0x9c, 0x52, 0xd6, 0x3d,
    0xf8, 0x5a, 0xf7, 0xbd, 0xd1, 0x0f, 0x08, 0xbd, 0xd1, 0xd6, 0x18, 0x3f, 0x50,
    0xe0, 0x97, 0xbd, 0xf8, 0xae, 0xaa, 0xbd, 0x0d, 0xdf, 0xb9, 0x3e, 0x91, 0x1b,
    0xca, 0x3e, 0x02, 0x82, 0x03, 0xbe, 0xf2, 0xfe, 0x85, 0xbd, 0x1c, 0xa5, 0xda,
    0x3d, 0x00, 0x99, 0xdd, 0xbb, 0xd2, 0x23, 0x7c, 0x3e, 0x75, 0xfc, 0x44, 0x3e,
    0x53, 0x26, 0xd9, 0x3e, 0x3a, 0x2e, 0x47, 0xbe, 0xf8, 0x5e, 0x94, 0xbe, 0xb2,
    0xc8, 0x6c, 0x3e, 0x72, 0xc7, 0x6b, 0x3d, 0x62, 0x6e, 0xf6, 0x3d, 0x8b, 0xa0,
    0x6a, 0xbe, 0xdf, 0x95, 0x90, 0x3c, 0xa9, 0x87, 0xac, 0x3e, 0xba, 0xf3, 0x0d,
    0xbe, 0xf9, 0xaa, 0xa3, 0x3e, 0x37, 0x8a, 0x0e, 0x3d, 0x8a, 0xf4, 0x6b, 0x3e,
    0x30, 0x77, 0x71, 0xbe, 0xc0, 0xe0, 0x40, 0xbd, 0xf8, 0x6f, 0x95, 0x3e, 0x3b,
    0x5e, 0x26, 0x3e, 0xc9, 0xfc, 0xad, 0x3e, 0xca, 0xa8, 0x7b, 0x3e, 0xce, 0x83,
    0x0c, 0x3e, 0x90, 0x71, 0xec, 0xbc, 0x2f, 0x99, 0x2e, 0xbd, 0x1a, 0x55, 0x0d,
    0x3e, 0x86, 0x96, 0x2e, 0x3e, 0x96, 0xc1, 0x0c, 0x3e, 0x00, 0xb1, 0xcb, 0xbb,
    0xda, 0x29, 0x56, 0x3e, 0x30, 0xaf, 0xf8, 0x3e, 0x1c, 0x77, 0xe9, 0x3d, 0xe7,
    0xc9, 0xd6, 0x3e, 0xa4, 0xe5, 0x9e, 0xbd, 0xbd, 0x1d, 0xfa, 0xbe, 0xdb, 0xa4,
    0xa2, 0x3d, 0x84, 0xfc, 0xfa, 0x3e, 0x9a, 0x0b, 0x6f, 0x3e, 0xd8, 0xcb, 0xcb,
    0xbe, 0x30, 0x24, 0x1d, 0x3d, 0x80, 0x8a, 0x9d, 0xbe, 0xad, 0x5e, 0xd8, 0x3e,
    0x78, 0x8c, 0x7c, 0xbe, 0x66, 0xe2, 0x42, 0x3e, 0xa9, 0xea, 0xc4, 0x3e, 0x4c,
    0x3c, 0xa5, 0x3d, 0xce, 0xab, 0x42, 0xb9, 0x80, 0x06, 0x5b, 0xbd, 0x98, 0xa7,
    0x62, 0xbd, 0x83, 0xc9, 0x54, 0xbe, 0xc0, 0x07, 0x36, 0x3c, 0x00, 0xdc, 0x02,
    0x3e, 0xfc, 0x95, 0x93, 0xbd, 0xee, 0x40, 0x7b, 0x3e, 0x7c, 0xba, 0xdf, 0xbd,
    0x10, 0xd1, 0x86, 0x3d, 0xab, 0xaf, 0xef, 0x3e, 0x8e, 0x2a, 0xca, 0xbe, 0x36,
    0xf7, 0xfe, 0x3e, 0xde, 0xd8, 0x3c, 0xbe, 0xe8, 0x98, 0x3b, 0xbd, 0x1e, 0xaa,
    0x75, 0x3e, 0x52, 0xa0, 0xe0, 0xbe, 0xc1, 0x6f, 0xdb, 0x3e, 0xdc, 0x02, 0x99,
    0x3d, 0x15, 0xb1, 0xb9, 0xbe, 0x52, 0x7d, 0xff, 0xbd, 0x3e, 0xd3, 0xb5, 0x3e,
    0x28, 0xcb, 0x1d, 0x3f, 0x27, 0x88, 0xa5, 0xbe, 0x70, 0x98, 0x87, 0xbe, 0x98,
    0xbc, 0x12, 0x3c, 0x90, 0x9e, 0x35, 0xbf, 0x80, 0x4f, 0xde, 0xbc, 0xd6, 0xdc,
    0x3a, 0x3d, 0xf8, 0x0a, 0x18, 0xbd, 0x3a, 0xb9, 0x36, 0xbe, 0xe2, 0x9b, 0x09,
    0x3e, 0x44, 0x9d, 0xa2, 0x3d, 0x06, 0x98, 0x52, 0x3e, 0xb1, 0xdf, 0xc5, 0xbe,
    0x61, 0x60, 0xa7, 0xbe, 0x8f, 0x7e, 0x3c, 0xbe, 0x26, 0x30, 0xcf, 0x3d, 0x02,
    0x19, 0x3d, 0xbe, 0xcb, 0x49, 0xc1, 0x3e, 0xe0, 0x1e, 0x06, 0x3d, 0x75, 0x5a,
    0x46, 0x3d, 0x8e, 0x23, 0x85, 0x3e, 0x24, 0x87, 0xad, 0x3d, 0x48, 0x82, 0x51,
    0x3e, 0x18, 0x9b, 0x0d, 0xbe, 0x0a, 0xfc, 0x65, 0x3e, 0x21, 0x9c, 0x84, 0x3e,
    0x79, 0x00, 0x97, 0xbd, 0x20, 0xc0, 0xa9, 0xbe, 0x00, 0x6e, 0xa2, 0x3c, 0x24,
    0x6b, 0xd9, 0xbe, 0xcb, 0xb7, 0x91, 0xbb, 0x8b, 0x70, 0xba, 0xbe, 0xbd, 0xd6,
    0x5e, 0x3e, 0x75, 0x86, 0xd3, 0xbe, 0xeb, 0x6b, 0xb6, 0xbe, 0x7c, 0x92, 0x14,
    0x3e, 0x7a, 0x7c, 0x2f, 0x3f, 0x89, 0xad, 0x8d, 0x3e, 0x5d, 0xbe, 0xf7, 0x3e,
    0x97, 0xed, 0xb8, 0x3e, 0x2f, 0x26, 0x96, 0x3e, 0x82, 0xe9, 0x6a, 0xbe, 0x9e,
    0x7c, 0x1d, 0xbf, 0xaa, 0x82, 0x6d, 0x3e, 0xac, 0x17, 0xd1, 0x3d, 0xf6, 0x91,
    0x4d, 0x3e, 0x6f, 0x28, 0xa1, 0x3d, 0x9b, 0x4f, 0x92, 0x3e, 0xa7, 0xef, 0x57,
    0x3e, 0xa2, 0x60, 0x48, 0xbe, 0x8d, 0xda, 0xb5, 0x3e, 0x6e, 0x3b, 0x4a, 0x3e,
    0xad, 0xce, 0x15, 0xbf, 0x6c, 0x7d, 0x9f, 0x3d, 0x6b, 0xf0, 0x1f, 0xbf, 0x05,
    0x0a, 0xb6, 0x3e, 0xd6, 0x39, 0x05, 0xbe, 0xef, 0x08, 0xd5, 0xbe, 0xc1, 0x2a,
    0xda, 0x3d, 0x55, 0x52, 0xa7, 0x3e, 0x14, 0xb3, 0xf1, 0x3d, 0xac, 0xe0, 0x8d,
    0xbe, 0x5c, 0xf7, 0x43, 0xbf, 0xa9, 0x51, 0xf0, 0xbd, 0xad, 0x3f, 0x00, 0x3f,
    0xac, 0x16, 0xd5, 0x3d, 0x60, 0xd8, 0xa1, 0xbc, 0xcc, 0xf4, 0xc1, 0x3d, 0x03,
    0xcb, 0xe3, 0xbe, 0xe3, 0xb5, 0xce, 0xbe, 0x00, 0xdf, 0xf0, 0xbe, 0xb4, 0xaf,
    0xd1, 0x3d, 0xec, 0xec, 0x73, 0xbe, 0x58, 0x6a, 0xe9, 0xbd, 0x22, 0xfd, 0x30,
    0xbe, 0xe0, 0x93, 0x21, 0xbd, 0x81, 0xff, 0xd7, 0xbe, 0x40, 0xaf, 0xc3, 0x3c,
    0x04, 0xe7, 0xd5, 0xbe, 0x5e, 0xe8, 0xab, 0xbe, 0x78, 0x95, 0x09, 0xbe, 0xc5,
    0x18, 0xc1, 0x3e, 0xc3, 0xd9, 0xa8, 0x3e, 0x5a, 0x1d, 0x1a, 0x3e, 0xf9, 0x03,
    0xd8, 0x3e, 0x48, 0x5d, 0x65, 0x3d, 0xe0, 0xe1, 0x65, 0xbc, 0x75, 0x47, 0x9b,
    0x3e, 0xb1, 0x3d, 0xda, 0xbe, 0xec, 0x6c, 0x86, 0x3d, 0xf9, 0x07, 0xbb, 0x3e,
    0x3b, 0x30, 0xda, 0x3e, 0x10, 0x2e, 0xfa, 0x3c, 0x06, 0x0b, 0x22, 0x3e, 0xd1,
    0xe1, 0xd9, 0xbe, 0x4d, 0xb0, 0xb8, 0x3d, 0xf4, 0xb1, 0xf2, 0x3e, 0xdb, 0xf7,
    0xcf, 0x3e, 0x5d, 0xe7, 0x71, 0xbe, 0xbc, 0xef, 0x7a, 0xbe, 0x14, 0x6f, 0xb0,
    0xbe, 0xd9, 0x38, 0xc5, 0xbe, 0xd5, 0xc6, 0x93, 0xbd, 0x41, 0x3d, 0xdb, 0x3e,
    0xe0, 0x93, 0x82, 0xbd, 0x3b, 0xc1, 0x9e, 0x3e, 0x10, 0xb0, 0x3f, 0x3e, 0xc1,
    0xac, 0x9a, 0x3e, 0xb8, 0xae, 0x73, 0xbd, 0x9a, 0xb6, 0xd3, 0xbe, 0x1a, 0xff,
    0xff, 0xff, 0x04, 0x00, 0x00, 0x00, 0x40, 0x00, 0x00, 0x00, 0xe8, 0xff, 0xec,
    0x3e, 0x27, 0x56, 0x12, 0x3f, 0x24, 0x8c, 0x3d, 0x3e, 0xb4, 0x67, 0xf8, 0xbe,
    0x9d, 0x70, 0x8f, 0xbe, 0x01, 0x77, 0xe7, 0xbb, 0x33, 0xb9, 0xe9, 0x3e, 0x37,
    0x2c, 0xda, 0xbe, 0xc0, 0xe2, 0x10, 0x3f, 0xe8, 0xa1, 0xa7, 0xbd, 0x8e, 0x9d,
    0x1c, 0xbe, 0xb0, 0x8a, 0x7d, 0xbd, 0x5e, 0x54, 0x88, 0x3c, 0x10, 0x7b, 0x1f,
    0xbe, 0xa8, 0x69, 0x13, 0xbf, 0x22, 0x59, 0xd2, 0xbe, 0x66, 0xff, 0xff, 0xff,
    0x04, 0x00, 0x00, 0x00, 0x40, 0x00, 0x00, 0x00, 0xe0, 0xc1, 0x33, 0xbe, 0x47,
    0xde, 0xc9, 0x3e, 0xbf, 0xc3, 0x24, 0x3f, 0x00, 0x00, 0x00, 0x00, 0x00, 0x00,
    0x00, 0x00, 0xf0, 0x08, 0x7e, 0xbc, 0x21, 0x5b, 0x6b, 0xbf, 0x00, 0x00, 0x00,
    0x00, 0xd3, 0x1b, 0x67, 0xbf, 0x00, 0x00, 0x00, 0x00, 0x00, 0x00, 0x00, 0x00,
    0x00, 0x00, 0x00, 0x00, 0xd5, 0x34, 0x04, 0x3f, 0x00, 0x00, 0x00, 0x00, 0x00,
    0x00, 0x00, 0x00, 0x00, 0x00, 0x00, 0x00, 0xb2, 0xff, 0xff, 0xff, 0x04, 0x00,
    0x00, 0x00, 0x40, 0x00, 0x00, 0x00, 0x3a, 0x24, 0x4b, 0x3f, 0x94, 0x66, 0x86,
    0x3e, 0x52, 0x4c, 0xa7, 0xbb, 0x06, 0x45, 0x1e, 0xbc, 0x1f, 0x68, 0xd3, 0xbe,
    0x2d, 0xb3, 0x9b, 0xbe, 0xd9, 0xf5, 0x7c, 0x3e, 0x11, 0x2b, 0xf3, 0x3e, 0x43,
    0x34, 0x9b, 0xbe, 0x1d, 0x3a, 0xfe, 0x3e, 0xc0, 0x42, 0x4a, 0x3e, 0xd1, 0x0c,
    0xe2, 0xbe, 0xa5, 0xf2, 0xdf, 0x3e, 0xbc, 0x62, 0x61, 0x3f, 0x00, 0x00, 0x00,
    0x00, 0x14, 0x7f, 0xaf, 0x3e, 0x00, 0x00, 0x06, 0x00, 0x08, 0x00, 0x04, 0x00,
    0x06, 0x00, 0x00, 0x00, 0x04, 0x00, 0x00, 0x00, 0x04, 0x00, 0x00, 0x00, 0x34,
    0xc8, 0x9e, 0xbe, 0x08, 0xfb, 0xff, 0xff, 0x0c, 0xfb, 0xff, 0xff, 0x0f, 0x00,
    0x00, 0x00, 0x4d, 0x4c, 0x49, 0x52, 0x20, 0x43, 0x6f, 0x6e, 0x76, 0x65, 0x72,
    0x74, 0x65, 0x64, 0x2e, 0x00, 0x01, 0x00, 0x00, 0x00, 0x14, 0x00, 0x00, 0x00,
    0x00, 0x00, 0x0e, 0x00, 0x18, 0x00, 0x14, 0x00, 0x10, 0x00, 0x0c, 0x00, 0x08,
    0x00, 0x04, 0x00, 0x0e, 0x00, 0x00, 0x00, 0x14, 0x00, 0x00, 0x00, 0x1c, 0x00,
    0x00, 0x00, 0xd8, 0x00, 0x00, 0x00, 0xdc, 0x00, 0x00, 0x00, 0xe0, 0x00, 0x00,
    0x00, 0x04, 0x00, 0x00, 0x00, 0x6d, 0x61, 0x69, 0x6e, 0x00, 0x00, 0x00, 0x00,
    0x03, 0x00, 0x00, 0x00, 0x80, 0x00, 0x00, 0x00, 0x38, 0x00, 0x00, 0x00, 0x04,
    0x00, 0x00, 0x00, 0x9a, 0xff, 0xff, 0xff, 0x10, 0x00, 0x00, 0x00, 0x00, 0x00,
    0x00, 0x08, 0x0c, 0x00, 0x00, 0x00, 0x10, 0x00, 0x00, 0x00, 0x84, 0xfb, 0xff,
    0xff, 0x01, 0x00, 0x00, 0x00, 0x09, 0x00, 0x00, 0x00, 0x03, 0x00, 0x00, 0x00,
    0x08, 0x00, 0x00, 0x00, 0x06, 0x00, 0x00, 0x00, 0x01, 0x00, 0x00, 0x00, 0xca,
    0xff, 0xff, 0xff, 0x10, 0x00, 0x00, 0x00, 0x00, 0x00, 0x00, 0x08, 0x10, 0x00,
    0x00, 0x00, 0x14, 0x00, 0x00, 0x00, 0xba, 0xff, 0xff, 0xff, 0x00, 0x00, 0x00,
    0x01, 0x01, 0x00, 0x00, 0x00, 0x08, 0x00, 0x00, 0x00, 0x03, 0x00, 0x00, 0x00,
    0x07, 0x00, 0x00, 0x00, 0x05, 0x00, 0x00, 0x00, 0x02, 0x00, 0x00, 0x00, 0x00,
    0x00, 0x0e, 0x00, 0x16, 0x00, 0x00, 0x00, 0x10, 0x00, 0x0c, 0x00, 0x0b, 0x00,
    0x04, 0x00, 0x0e, 0x00, 0x00, 0x00, 0x18, 0x00, 0x00, 0x00, 0x00, 0x00, 0x00,
    0x08, 0x18, 0x00, 0x00, 0x00, 0x1c, 0x00, 0x00, 0x00, 0x00, 0x00, 0x06, 0x00,
    0x08, 0x00, 0x07, 0x00, 0x06, 0x00, 0x00, 0x00, 0x00, 0x00, 0x00, 0x01, 0x01,
    0x00, 0x00, 0x00, 0x07, 0x00, 0x00, 0x00, 0x03, 0x00, 0x00, 0x00, 0x00, 0x00,
    0x00, 0x00, 0x04, 0x00, 0x00, 0x00, 0x03, 0x00, 0x00, 0x00, 0x01, 0x00, 0x00,
    0x00, 0x09, 0x00, 0x00, 0x00, 0x01, 0x00, 0x00, 0x00, 0x00, 0x00, 0x00, 0x00,
    0x0a, 0x00, 0x00, 0x00, 0xa4, 0x03, 0x00, 0x00, 0x34, 0x03, 0x00, 0x00, 0xc4,
    0x02, 0x00, 0x00, 0x6c, 0x02, 0x00, 0x00, 0x20, 0x02, 0x00, 0x00, 0xd4, 0x01,
    0x00, 0x00, 0x88, 0x01, 0x00, 0x00, 0xf4, 0x00, 0x00, 0x00, 0x60, 0x00, 0x00,
    0x00, 0x04, 0x00, 0x00, 0x00, 0x9a, 0xfc, 0xff, 0xff, 0x00, 0x00, 0x00, 0x01,
    0x14, 0x00, 0x00, 0x00, 0x1c, 0x00, 0x00, 0x00, 0x1c, 0x00, 0x00, 0x00, 0x0a,
    0x00, 0x00, 0x00, 0x34, 0x00, 0x00, 0x00, 0x02, 0x00, 0x00, 0x00, 0xff, 0xff,
    0xff, 0xff, 0x01, 0x00, 0x00, 0x00, 0x84, 0xfc, 0xff, 0xff, 0x19, 0x00, 0x00,
    0x00, 0x53, 0x74, 0x61, 0x74, 0x65, 0x66, 0x75, 0x6c, 0x50, 0x61, 0x72, 0x74,
    0x69, 0x74, 0x69, 0x6f, 0x6e, 0x65, 0x64, 0x43, 0x61, 0x6c, 0x6c, 0x3a, 0x30,
    0x00, 0x00, 0x00, 0x02, 0x00, 0x00, 0x00, 0x01, 0x00, 0x00, 0x00, 0x01, 0x00,
    0x00, 0x00, 0xf2, 0xfc, 0xff, 0xff, 0x00, 0x00, 0x00, 0x01, 0x14, 0x00, 0x00,
    0x00, 0x1c, 0x00, 0x00, 0x00, 0x1c, 0x00, 0x00, 0x00, 0x09, 0x00, 0x00, 0x00,
    0x6c, 0x00, 0x00, 0x00, 0x02, 0x00, 0x00, 0x00, 0xff, 0xff, 0xff, 0xff, 0x10,
    0x00, 0x00, 0x00, 0xdc, 0xfc, 0xff, 0xff, 0x52, 0x00, 0x00, 0x00, 0x73, 0x65,
    0x71, 0x75, 0x65, 0x6e, 0x74, 0x69, 0x61, 0x6c, 0x5f, 0x31, 0x2f, 0x64, 0x65,
    0x6e, 0x73, 0x65, 0x5f, 0x33, 0x2f, 0x4d, 0x61, 0x74, 0x4d, 0x75, 0x6c, 0x3b,
    0x73, 0x65, 0x71, 0x75, 0x65, 0x6e, 0x74, 0x69, 0x61, 0x6c, 0x5f, 0x31, 0x2f,
    0x64, 0x65, 0x6e, 0x73, 0x65, 0x5f, 0x33, 0x2f, 0x52, 0x65, 0x6c, 0x75, 0x3b,
    0x73, 0x65, 0x71, 0x75, 0x65, 0x6e, 0x74, 0x69, 0x61, 0x6c, 0x5f, 0x31, 0x2f,
    0x64, 0x65, 0x6e, 0x73, 0x65, 0x5f, 0x33, 0x2f, 0x42, 0x69, 0x61, 0x73, 0x41,
    0x64, 0x64, 0x00, 0x00, 0x02, 0x00, 0x00, 0x00, 0x01, 0x00, 0x00, 0x00, 0x10,
    0x00, 0x00, 0x00, 0x82, 0xfd, 0xff, 0xff, 0x00, 0x00, 0x00, 0x01, 0x14, 0x00,
    0x00, 0x00, 0x1c, 0x00, 0x00, 0x00, 0x1c, 0x00, 0x00, 0x00, 0x08, 0x00, 0x00,
    0x00, 0x6c, 0x00, 0x00, 0x00, 0x02, 0x00, 0x00, 0x00, 0xff, 0xff, 0xff, 0xff,
    0x10, 0x00, 0x00, 0x00, 0x6c, 0xfd, 0xff, 0xff, 0x52, 0x00, 0x00, 0x00, 0x73,
    0x65, 0x71, 0x75, 0x65, 0x6e, 0x74, 0x69, 0x61, 0x6c, 0x5f, 0x31, 0x2f, 0x64,
    0x65, 0x6e, 0x73, 0x65, 0x5f, 0x32, 0x2f, 0x4d, 0x61, 0x74, 0x4d, 0x75, 0x6c,
    0x3b, 0x73, 0x65, 0x71, 0x75, 0x65, 0x6e, 0x74, 0x69, 0x61, 0x6c, 0x5f, 0x31,
    0x2f, 0x64, 0x65, 0x6e, 0x73, 0x65, 0x5f, 0x32, 0x2f, 0x52, 0x65, 0x6c, 0x75,
    0x3b, 0x73, 0x65, 0x71, 0x75, 0x65, 0x6e, 0x74, 0x69, 0x61, 0x6c, 0x5f, 0x31,
    0x2f, 0x64, 0x65, 0x6e, 0x73, 0x65, 0x5f, 0x32, 0x2f, 0x42, 0x69, 0x61, 0x73,
    0x41, 0x64, 0x64, 0x00, 0x00, 0x02, 0x00, 0x00, 0x00, 0x01, 0x00, 0x00, 0x00,
    0x10, 0x00, 0x00, 0x00, 0x7e, 0xfe, 0xff, 0xff, 0x00, 0x00, 0x00, 0x01, 0x10,
    0x00, 0x00, 0x00, 0x10, 0x00, 0x00, 0x00, 0x07, 0x00, 0x00, 0x00, 0x28, 0x00,
    0x00, 0x00, 0xec, 0xfd, 0xff, 0xff, 0x1b, 0x00, 0x00, 0x00, 0x73, 0x65, 0x71,
    0x75, 0x65, 0x6e, 0x74, 0x69, 0x61, 0x6c, 0x5f, 0x31, 0x2f, 0x64, 0x65, 0x6e,
    0x73, 0x65, 0x5f, 0x34, 0x2f, 0x4d, 0x61, 0x74, 0x4d, 0x75, 0x6c, 0x00, 0x02,
    0x00, 0x00, 0x00, 0x01, 0x00, 0x00, 0x00, 0x10, 0x00, 0x00, 0x00, 0xc6, 0xfe,
    0xff, 0xff, 0x00, 0x00, 0x00, 0x01, 0x10, 0x00, 0x00, 0x00, 0x10, 0x00, 0x00,
    0x00, 0x06, 0x00, 0x00, 0x00, 0x28, 0x00, 0x00, 0x00, 0x34, 0xfe, 0xff, 0xff,
    0x1b, 0x00, 0x00, 0x00, 0x73, 0x65, 0x71, 0x75, 0x65, 0x6e, 0x74, 0x69, 0x61,
    0x6c, 0x5f, 0x31, 0x2f, 0x64, 0x65, 0x6e, 0x73, 0x65, 0x5f, 0x33, 0x2f, 0x4d,
    0x61, 0x74, 0x4d, 0x75, 0x6c, 0x00, 0x02, 0x00, 0x00, 0x00, 0x10, 0x00, 0x00,
    0x00, 0x10, 0x00, 0x00, 0x00, 0x0e, 0xff, 0xff, 0xff, 0x00, 0x00, 0x00, 0x01,
    0x10, 0x00, 0x00, 0x00, 0x10, 0x00, 0x00, 0x00, 0x05, 0x00, 0x00, 0x00, 0x28,
    0x00, 0x00, 0x00, 0x7c, 0xfe, 0xff, 0xff, 0x1b, 0x00, 0x00, 0x00, 0x73, 0x65,
    0x71, 0x75, 0x65, 0x6e, 0x74, 0x69, 0x61, 0x6c, 0x5f, 0x31, 0x2f, 0x64, 0x65,
    0x6e, 0x73, 0x65, 0x5f, 0x32, 0x2f, 0x4d, 0x61, 0x74, 0x4d, 0x75, 0x6c, 0x00,
    0x02, 0x00, 0x00, 0x00, 0x10, 0x00, 0x00, 0x00, 0x01, 0x00, 0x00, 0x00, 0x56,
    0xff, 0xff, 0xff, 0x00, 0x00, 0x00, 0x01, 0x10, 0x00, 0x00, 0x00, 0x10, 0x00,
    0x00, 0x00, 0x04, 0x00, 0x00, 0x00, 0x38, 0x00, 0x00, 0x00, 0xc4, 0xfe, 0xff,
    0xff, 0x2b, 0x00, 0x00, 0x00, 0x73, 0x65, 0x71, 0x75, 0x65, 0x6e, 0x74, 0x69,
    0x61, 0x6c, 0x5f, 0x31, 0x2f, 0x64, 0x65, 0x6e, 0x73, 0x65, 0x5f, 0x32, 0x2f,
    0x42, 0x69, 0x61, 0x73, 0x41, 0x64, 0x64, 0x2f, 0x52, 0x65, 0x61, 0x64, 0x56,
    0x61, 0x72, 0x69, 0x61, 0x62, 0x6c, 0x65, 0x4f, 0x70, 0x00, 0x01, 0x00, 0x00,
    0x00, 0x10, 0x00, 0x00, 0x00, 0xaa, 0xff, 0xff, 0xff, 0x00, 0x00, 0x00, 0x01,
    0x10, 0x00, 0x00, 0x00, 0x10, 0x00, 0x00, 0x00, 0x03, 0x00, 0x00, 0x00, 0x38,
    0x00, 0x00, 0x00, 0x18, 0xff, 0xff, 0xff, 0x2b, 0x00, 0x00, 0x00, 0x73, 0x65,
    0x71, 0x75, 0x65, 0x6e, 0x74, 0x69, 0x61, 0x6c, 0x5f, 0x31, 0x2f, 0x64, 0x65,
    0x6e, 0x73, 0x65, 0x5f, 0x33, 0x2f, 0x42, 0x69, 0x61, 0x73, 0x41, 0x64, 0x64,
    0x2f, 0x52, 0x65, 0x61, 0x64, 0x56, 0x61, 0x72, 0x69, 0x61, 0x62, 0x6c, 0x65,
    0x4f, 0x70, 0x00, 0x01, 0x00, 0x00, 0x00, 0x10, 0x00, 0x00, 0x00, 0x00, 0x00,
    0x16, 0x00, 0x18, 0x00, 0x14, 0x00, 0x00, 0x00, 0x10, 0x00, 0x0c, 0x00, 0x08,
    0x00, 0x00, 0x00, 0x00, 0x00, 0x00, 0x00, 0x07, 0x00, 0x16, 0x00, 0x00, 0x00,
    0x00, 0x00, 0x00, 0x01, 0x10, 0x00, 0x00, 0x00, 0x10, 0x00, 0x00, 0x00, 0x02,
    0x00, 0x00, 0x00, 0x38, 0x00, 0x00, 0x00, 0x84, 0xff, 0xff, 0xff, 0x2b, 0x00,
    0x00, 0x00, 0x73, 0x65, 0x71, 0x75, 0x65, 0x6e, 0x74, 0x69, 0x61, 0x6c, 0x5f,
    0x31, 0x2f, 0x64, 0x65, 0x6e, 0x73, 0x65, 0x5f, 0x34, 0x2f, 0x42, 0x69, 0x61,
    0x73, 0x41, 0x64, 0x64, 0x2f, 0x52, 0x65, 0x61, 0x64, 0x56, 0x61, 0x72, 0x69,
    0x61, 0x62, 0x6c, 0x65, 0x4f, 0x70, 0x00, 0x01, 0x00, 0x00, 0x00, 0x01, 0x00,
    0x00, 0x00, 0x00, 0x00, 0x16, 0x00, 0x1c, 0x00, 0x18, 0x00, 0x00, 0x00, 0x14,
    0x00, 0x10, 0x00, 0x0c, 0x00, 0x00, 0x00, 0x00, 0x00, 0x08, 0x00, 0x07, 0x00,
    0x16, 0x00, 0x00, 0x00, 0x00, 0x00, 0x00, 0x01, 0x14, 0x00, 0x00, 0x00, 0x20,
    0x00, 0x00, 0x00, 0x20, 0x00, 0x00, 0x00, 0x01, 0x00, 0x00, 0x00, 0x3c, 0x00,
    0x00, 0x00, 0x02, 0x00, 0x00, 0x00, 0xff, 0xff, 0xff, 0xff, 0x01, 0x00, 0x00,
    0x00, 0x04, 0x00, 0x04, 0x00, 0x04, 0x00, 0x00, 0x00, 0x1f, 0x00, 0x00, 0x00,
    0x73, 0x65, 0x72, 0x76, 0x69, 0x6e, 0x67, 0x5f, 0x64, 0x65, 0x66, 0x61, 0x75,
    0x6c, 0x74, 0x5f, 0x64, 0x65, 0x6e, 0x73, 0x65, 0x5f, 0x32, 0x5f, 0x69, 0x6e,
    0x70, 0x75, 0x74, 0x3a, 0x30, 0x00, 0x02, 0x00, 0x00, 0x00, 0x01, 0x00, 0x00,
    0x00, 0x01, 0x00, 0x00, 0x00, 0x01, 0x00, 0x00, 0x00, 0x10, 0x00, 0x00, 0x00,
    0x0c, 0x00, 0x0c, 0x00, 0x0b, 0x00, 0x00, 0x00, 0x00, 0x00, 0x04, 0x00, 0x0c,
    0x00, 0x00, 0x00, 0x09, 0x00, 0x00, 0x00, 0x00, 0x00, 0x00, 0x09,
};
const int sine_model_len = 3196;
